{
  "version": "1.0",
  "truncation": null,
  "padding": null,
  "added_tokens": [
    {
      "id": 0,
      "content": "<|pad|>",
      "single_word": false,
      "lstrip": false,
      "rstrip": false,
      "normalized": false,
      "special": true
    },
    {
      "id": 1,
      "content": "<|bos|>",
      "single_word": false,
      "lstrip": false,
      "rstrip": false,
      "normalized": false,
      "special": true
    },
    {
      "id": 2,
      "content": "<|eos|>",
      "single_word": false,
      "lstrip": false,
      "rstrip": false,
      "normalized": false,
      "special": true
    },
    {
      "id": 3,
      "content": "<|unk|>",
      "single_word": false,
      "lstrip": false,
      "rstrip": false,
      "normalized": false,
      "special": true
    },
    {
      "id": 4,
      "content": "<|im_start|>",
      "single_word": false,
      "lstrip": false,
      "rstrip": false,
      "normalized": false,
      "special": true
    },
    {
      "id": 5,
      "content": "<|im_end|>",
      "single_word": false,
      "lstrip": false,
      "rstrip": false,
      "normalized": false,
      "special": true
    },
    {
      "id": 6,
      "content": "<|thought_start|>",
      "single_word": false,
      "lstrip": false,
      "rstrip": false,
      "normalized": false,
      "special": true
    },
    {
      "id": 7,
      "content": "<|thought_end|>",
      "single_word": false,
      "lstrip": false,
      "rstrip": false,
      "normalized": false,
      "special": true
    },
    {
      "id": 8,
      "content": "<|tool_call_start|>",
      "single_word": false,
      "lstrip": false,
      "rstrip": false,
      "normalized": false,
      "special": true
    },
    {
      "id": 9,
      "content": "<|tool_call_end|>",
      "single_word": false,
      "lstrip": false,
      "rstrip": false,
      "normalized": false,
      "special": true
    },
    {
      "id": 10,
      "content": "<|tool_result_start|>",
      "single_word": false,
      "lstrip": false,
      "rstrip": false,
      "normalized": false,
      "special": true
    },
    {
      "id": 11,
      "content": "<|tool_result_end|>",
      "single_word": false,
      "lstrip": false,
      "rstrip": false,
      "normalized": false,
      "special": true
    },
    {
      "id": 12,
      "content": "<|mcp_server_decl|>",
      "single_word": false,
      "lstrip": false,
      "rstrip": false,
      "normalized": false,
      "special": true
    },
    {
      "id": 13,
      "content": "<|mcp_server_end|>",
      "single_word": false,
      "lstrip": false,
      "rstrip": false,
      "normalized": false,
      "special": true
    }
  ],
  "normalizer": null,
  "pre_tokenizer": {
    "type": "ByteLevel",
    "add_prefix_space": false,
    "trim_offsets": true,
    "use_regex": true
  },
  "post_processor": {
    "type": "ByteLevel",
    "add_prefix_space": true,
    "trim_offsets": true,
    "use_regex": true
  },
  "decoder": {
    "type": "ByteLevel",
    "add_prefix_space": true,
    "trim_offsets": true,
    "use_regex": true
  },
  "model": {
    "type": "BPE",
    "dropout": null,
    "unk_token": "<|unk|>",
    "continuing_subword_prefix": null,
    "end_of_word_suffix": null,
    "fuse_unk": false,
    "byte_fallback": false,
    "ignore_merges": false,
    "vocab": {
      "<|pad|>": 0,
      "<|bos|>": 1,
      "<|eos|>": 2,
      "<|unk|>": 3,
      "<|im_start|>": 4,
      "<|im_end|>": 5,
      "<|thought_start|>": 6,
      "<|thought_end|>": 7,
      "<|tool_call_start|>": 8,
      "<|tool_call_end|>": 9,
      "<|tool_result_start|>": 10,
      "<|tool_result_end|>": 11,
      "<|mcp_server_decl|>": 12,
      "<|mcp_server_end|>": 13,
      "!": 14,
      "\"": 15,
      "#": 16,
      "$": 17,
      "%": 18,
      "&": 19,
      "'": 20,
      "(": 21,
      ")": 22,
      "*": 23,
      "+": 24,
      ",": 25,
      "-": 26,
      ".": 27,
      "/": 28,
      "0": 29,
      "1": 30,
      "2": 31,
      "3": 32,
      "4": 33,
      "5": 34,
      "6": 35,
      "7": 36,
      "8": 37,
      "9": 38,
      ":": 39,
      ";": 40,
      "<": 41,
      "=": 42,
      ">": 43,
      "?": 44,
      "@": 45,
      "A": 46,
      "B": 47,
      "C": 48,
      "D": 49,
      "E": 50,
      "F": 51,
      "G": 52,
      "H": 53,
      "I": 54,
      "J": 55,
      "K": 56,
      "L": 57,
      "M": 58,
      "N": 59,
      "O": 60,
      "P": 61,
      "Q": 62,
      "R": 63,
      "S": 64,
      "T": 65,
      "U": 66,
      "V": 67,
      "W": 68,
      "X": 69,
      "Y": 70,
      "Z": 71,
      "[": 72,
      "\\": 73,
      "]": 74,
      "^": 75,
      "_": 76,
      "`": 77,
      "a": 78,
      "b": 79,
      "c": 80,
      "d": 81,
      "e": 82,
      "f": 83,
      "g": 84,
      "h": 85,
      "i": 86,
      "j": 87,
      "k": 88,
      "l": 89,
      "m": 90,
      "n": 91,
      "o": 92,
      "p": 93,
      "q": 94,
      "r": 95,
      "s": 96,
      "t": 97,
      "u": 98,
      "v": 99,
      "w": 100,
      "x": 101,
      "y": 102,
      "z": 103,
      "{": 104,
      "|": 105,
      "}": 106,
      "~": 107,
      "¡": 108,
      "¢": 109,
      "£": 110,
      "¤": 111,
      "¥": 112,
      "¦": 113,
      "§": 114,
      "¨": 115,
      "©": 116,
      "ª": 117,
      "«": 118,
      "¬": 119,
      "®": 120,
      "¯": 121,
      "°": 122,
      "±": 123,
      "²": 124,
      "³": 125,
      "´": 126,
      "µ": 127,
      "¶": 128,
      "·": 129,
      "¸": 130,
      "¹": 131,
      "º": 132,
      "»": 133,
      "¼": 134,
      "½": 135,
      "¾": 136,
      "¿": 137,
      "À": 138,
      "Á": 139,
      "Â": 140,
      "Ã": 141,
      "Ä": 142,
      "Å": 143,
      "Æ": 144,
      "Ç": 145,
      "È": 146,
      "É": 147,
      "Ê": 148,
      "Ë": 149,
      "Ì": 150,
      "Í": 151,
      "Î": 152,
      "Ï": 153,
      "Ð": 154,
      "Ñ": 155,
      "Ò": 156,
      "Ó": 157,
      "Ô": 158,
      "Õ": 159,
      "Ö": 160,
      "×": 161,
      "Ø": 162,
      "Ù": 163,
      "Ú": 164,
      "Û": 165,
      "Ü": 166,
      "Ý": 167,
      "Þ": 168,
      "ß": 169,
      "à": 170,
      "á": 171,
      "â": 172,
      "ã": 173,
      "ä": 174,
      "å": 175,
      "æ": 176,
      "ç": 177,
      "è": 178,
      "é": 179,
      "ê": 180,
      "ë": 181,
      "ì": 182,
      "í": 183,
      "î": 184,
      "ï": 185,
      "ð": 186,
      "ñ": 187,
      "ò": 188,
      "ó": 189,
      "ô": 190,
      "õ": 191,
      "ö": 192,
      "÷": 193,
      "ø": 194,
      "ù": 195,
      "ú": 196,
      "û": 197,
      "ü": 198,
      "ý": 199,
      "þ": 200,
      "ÿ": 201,
      "Ā": 202,
      "ā": 203,
      "Ă": 204,
      "ă": 205,
      "Ą": 206,
      "ą": 207,
      "Ć": 208,
      "ć": 209,
      "Ĉ": 210,
      "ĉ": 211,
      "Ċ": 212,
      "ċ": 213,
      "Č": 214,
      "č": 215,
      "Ď": 216,
      "ď": 217,
      "Đ": 218,
      "đ": 219,
      "Ē": 220,
      "ē": 221,
      "Ĕ": 222,
      "ĕ": 223,
      "Ė": 224,
      "ė": 225,
      "Ę": 226,
      "ę": 227,
      "Ě": 228,
      "ě": 229,
      "Ĝ": 230,
      "ĝ": 231,
      "Ğ": 232,
      "ğ": 233,
      "Ġ": 234,
      "ġ": 235,
      "Ģ": 236,
      "ģ": 237,
      "Ĥ": 238,
      "ĥ": 239,
      "Ħ": 240,
      "ħ": 241,
      "Ĩ": 242,
      "ĩ": 243,
      "Ī": 244,
      "ī": 245,
      "Ĭ": 246,
      "ĭ": 247,
      "Į": 248,
      "į": 249,
      "İ": 250,
      "ı": 251,
      "Ĳ": 252,
      "ĳ": 253,
      "Ĵ": 254,
      "ĵ": 255,
      "Ķ": 256,
      "ķ": 257,
      "ĸ": 258,
      "Ĺ": 259,
      "ĺ": 260,
      "Ļ": 261,
      "ļ": 262,
      "Ľ": 263,
      "ľ": 264,
      "Ŀ": 265,
      "ŀ": 266,
      "Ł": 267,
      "ł": 268,
      "Ń": 269,
      "ĠĠ": 270,
      "ĠĠĠĠ": 271,
      "Ġ\"": 272,
      "\":": 273,
      "st": 274,
      "ĊĠĠĠĠ": 275,
      "<|": 276,
      "|>": 277,
      "on": 278,
      "en": 279,
      "ar": 280,
      "to": 281,
      "es": 282,
      "ĠĠĠ": 283,
      "er": 284,
      "th": 285,
      "im": 286,
      "in": 287,
      "\",": 288,
      "ti": 289,
      "ol": 290,
      "star": 291,
      "end": 292,
      "start": 293,
      "al": 294,
      "Ġ{": 295,
      "an": 296,
      "tool": 297,
      "te": 298,
      "us": 299,
      "cal": 300,
      "tion": 301,
      "ĊĠĠĠĠĠĠĠ": 302,
      "re": 303,
      "il": 304,
      "ĊĠĠĠĠĠĠĠĠ": 305,
      "Ġ}": 306,
      "ou": 307,
      "ĊĠĠĠĠĠ": 308,
      "ĊĠĠĠĠĠĠĠĠĠ": 309,
      "ro": 310,
      "de": 311,
      "ri": 312,
      "si": 313,
      "Ġa": 314,
      "Ġw": 315,
      "at": 316,
      "lo": 317,
      "ec": 318,
      "fil": 319,
      "ĊĠĠĠ": 320,
      "ĠM": 321,
      "qu": 322,
      "Ġth": 323,
      "Ġthe": 324,
      "local": 325,
      "em": 326,
      "user": 327,
      "om": 328,
      "ent": 329,
      "pe": 330,
      "ty": 331,
      "type": 332,
      "as": 333,
      "ing": 334,
      "am": 335,
      "pro": 336,
      "cri": 337,
      "des": 338,
      "ption": 339,
      "cription": 340,
      "description": 341,
      "res": 342,
      "call": 343,
      "ame": 344,
      "ode": 345,
      "ath": 346,
      "file": 347,
      "Ġc": 348,
      "it": 349,
      "Ġs": 350,
      "ess": 351,
      "path": 352,
      ".<|": 353,
      "ch": 354,
      "Ġto": 355,
      ".\"": 356,
      "yst": 357,
      "ystem": 358,
      "Ġuser": 359,
      "Ġ(": 360,
      "ve": 361,
      "ul": 362,
      "Ġ},": 363,
      "Ġ=": 364,
      "Ġre": 365,
      "cess": 366,
      "Ġlocal": 367,
      "ab": 368,
      "ht": 369,
      "are": 370,
      "ĠC": 371,
      "omm": 372,
      "ut": 373,
      "stat": 374,
      "status": 375,
      "gu": 376,
      "ont": 377,
      "Ġin": 378,
      "ery": 379,
      "ction": 380,
      "ring": 381,
      "string": 382,
      "CP": 383,
      "You": 384,
      "ght": 385,
      "name": 386,
      "{\"": 387,
      "}<|": 388,
      "ĊĠ": 389,
      "Ġtool": 390,
      "stan": 391,
      "|>{\"": 392,
      "thou": 393,
      "Ġ{\"": 394,
      "sistan": 395,
      "ĠMode": 396,
      "qui": 397,
      "assistan": 398,
      "resul": 399,
      "thought": 400,
      "ĠModel": 401,
      "assistant": 402,
      "result": 403,
      "ith": 404,
      "Ġwith": 405,
      "of": 406,
      "query": 407,
      "ontent": 408,
      "ex": 409,
      "ect": 410,
      "dat": 411,
      "ad": 412,
      "le": 413,
      "ĠS": 414,
      "Ġac": 415,
      "\"}": 416,
      "he": 417,
      "Ġm": 418,
      "Ġ`": 419,
      "and": 420,
      "ver": 421,
      "db": 422,
      "Ġusers": 423,
      "git": 424,
      "ag": 425,
      "age": 426,
      "Ġi": 427,
      "Ġ[": 428,
      "Ġh": 429,
      "ment": 430,
      "vi": 431,
      "Ġ1": 432,
      "ject": 433,
      "Ġfile": 434,
      "ecu": 435,
      "ommand": 436,
      "ite": 437,
      "ase": 438,
      "abase": 439,
      "database": 440,
      "ry": 441,
      "tory": 442,
      "tive": 443,
      "rite": 444,
      ").": 445,
      "per": 446,
      "Ġ]": 447,
      "Ġis": 448,
      "Ġare": 449,
      "Ġan": 450,
      "ill": 451,
      "Ġpro": 452,
      "ĠI": 453,
      "or": 454,
      "ecute": 455,
      "system": 456,
      "esystem": 457,
      "filesystem": 458,
      "Ġp": 459,
      "un": 460,
      "ain": 461,
      "osi": 462,
      "posi": 463,
      "pository": 464,
      "du": 465,
      "duction": 466,
      "able": 467,
      "ly": 468,
      "):": 469,
      "LM": 470,
      "Lan": 471,
      "MCP": 472,
      "Pro": 473,
      "Sch": 474,
      "SLM": 475,
      "The": 476,
      "Va": 477,
      "]<|": 478,
      "ay": 479,
      "ach": 480,
      "ave": 481,
      "bject": 482,
      "col": 483,
      "mal": 484,
      "ous": 485,
      "object": 486,
      "put": 487,
      "tw": 488,
      "ter": 489,
      "xt": 490,
      "Ġcall": 491,
      "ĠYou": 492,
      "Ġvi": 493,
      "ĠLan": 494,
      "ĠPro": 495,
      "ĠVa": 496,
      "onte": 497,
      "onom": 498,
      "arame": 499,
      "argu": 500,
      "tocol": 501,
      "ine": 502,
      "input": 503,
      "ties": 504,
      "red": 505,
      "requi": 506,
      "Ġaut": 507,
      "Ġwill": 508,
      "ĠMCP": 509,
      "ĠMach": 510,
      "ema": 511,
      "proper": 512,
      "Ġsof": 513,
      "Ġrequi": 514,
      "ĠConte": 515,
      "guage": 516,
      "Ġtools": 517,
      "ĠSmal": 518,
      "Ġaccess": 519,
      "Ġhave": 520,
      "ments": 521,
      "Ġparame": 522,
      "Schema": 523,
      "SLMM": 524,
      "ayu": 525,
      "tware": 526,
      "ters": 527,
      "Ġvia": 528,
      "ĠLanguage": 529,
      "ĠProtocol": 530,
      "ĠVaayu": 531,
      "onomous": 532,
      "arguments": 533,
      "inputSchema": 534,
      "required": 535,
      "Ġautonomous": 536,
      "ĠMachine": 537,
      "properties": 538,
      "Ġsoftware": 539,
      "Ġrequires": 540,
      "ĠContext": 541,
      "ĠSmall": 542,
      "Ġparameters": 543,
      "content": 544,
      "Ġex": 545,
      "sion": 546,
      "version": 547,
      "uc": 548,
      "Ġ0": 549,
      ".\",": 550,
      "Ġstatus": 551,
      "bu": 552,
      "se": 553,
      "lite": 554,
      "qlite": 555,
      "pp": 556,
      "tt": 557,
      "ings": 558,
      "action": 559,
      "Ġgit": 560,
      "ĊĠĠĠĠĠĠĠĠĠĠĠ": 561,
      "ommit": 562,
      "Ġt": 563,
      "ĠF": 564,
      "..": 565,
      "write": 566,
      "\"}.<|": 567,
      "\"}}<|": 568,
      "ation": 569,
      "./": 570,
      "Ġ\"./": 571,
      "debu": 572,
      "debug": 573,
      "``": 574,
      "command": 575,
      "Ġread": 576,
      "Ġof": 577,
      "log": 578,
      "sqlite": 579,
      "op": 580,
      "repository": 581,
      "CT": 582,
      "EL": 583,
      "ECT": 584,
      "QL": 585,
      "SEL": 586,
      "ĠSQL": 587,
      "Ġactive": 588,
      "SELECT": 589,
      "di": 590,
      "ate": 591,
      "date": 592,
      "pdate": 593,
      "Ġmode": 594,
      "Ġproduction": 595,
      "main": 596,
      "Ġb": 597,
      "uccess": 598,
      "Ex": 599,
      "Run": 600,
      "hec": 601,
      "heck": 602,
      "ndebug": 603,
      "tes": 604,
      "ytes": 605,
      "ru": 606,
      "rue": 607,
      "Ġor": 608,
      "app": 609,
      "cw": 610,
      "out": 611,
      "process": 612,
      "execute": 613,
      "cwd": 614,
      "ĠT": 615,
      "ger": 616,
      "inte": 617,
      "integer": 618,
      "read": 619,
      "Ġdatabase": 620,
      "ild": 621,
      "ttings": 622,
      "fi": 623,
      "onfi": 624,
      "py": 625,
      "ff": 626,
      "ran": 627,
      "Ġcommit": 628,
      "essage": 629,
      "Ġrepository": 630,
      "lean": 631,
      "diff": 632,
      "ranch": 633,
      "(*": 634,
      "42": 635,
      "ER": 636,
      "HER": 637,
      "NT": 638,
      "OM": 639,
      "OU": 640,
      "ROM": 641,
      "WHER": 642,
      "ac": 643,
      "ist": 644,
      "nt": 645,
      "ow": 646,
      "Ġquery": 647,
      "ĠWHER": 648,
      "any": 649,
      "ount": 650,
      "ĠCOU": 651,
      "data": 652,
      "Ġmany": 653,
      "Ġhow": 654,
      "Ġexist": 655,
      "Ġtable": 656,
      "ĠFROM": 657,
      "ĠSQLite": 658,
      "(*)": 659,
      "active": 660,
      "ĠWHERE": 661,
      "ĠCOUNT": 662,
      "Ġo": 663,
      "'\\": 664,
      "54": 665,
      "Update": 666,
      "nen": 667,
      "ron": 668,
      "Ġ'": 669,
      "Ġen": 670,
      "alse": 671,
      "ritt": 672,
      "production": 673,
      "viron": 674,
      "ĠFalse": 675,
      "nenviron": 676,
      "Ġenable": 677,
      "ritten": 678,
      "nenvironment": 679,
      "king": 680,
      "orking": 681,
      "Execute": 682,
      "`.<|": 683,
      "um": 684,
      "Ġon": 685,
      "Ġcont": 686,
      "ful": 687,
      "uccessful": 688,
      "uccessfully": 689,
      "Ġpath": 690,
      "Ġcontent": 691,
      "Ġbytes": 692,
      "Bu": 693,
      "ce": 694,
      "ede": 695,
      "eout": 696,
      "ll": 697,
      "nings": 698,
      "ot": 699,
      "Ġro": 700,
      "Ġ\".\"": 701,
      "std": 702,
      "arnings": 703,
      "imeout": 704,
      "Ġwarnings": 705,
      "Ġcommand": 706,
      "Ġshe": 707,
      "Ġsuc": 708,
      "Ġproject": 709,
      "```": 710,
      "Build": 711,
      "ceede": 712,
      "Ġroot": 713,
      "Ġ\".\"}": 714,
      "Ġshell": 715,
      "Ġsucceede": 716,
      "Ġsucceeded": 717,
      "\"}<|": 718,
      "la": 719,
      "Ġf": 720,
      "fse": 721,
      "hat": 722,
      "pect": 723,
      "spect": 724,
      "you": 725,
      "Ġyou": 726,
      "side": 727,
      "Ġwhat": 728,
      "Ġinspect": 729,
      "Ġinside": 730,
      "ĠTrue": 731,
      "fset": 732,
      "run": 733,
      "Ġrun": 734,
      "Ġapp": 735,
      "ettings": 736,
      "Ġsettings": 737,
      "rs": 738,
      "Ġconfi": 739,
      "erver": 740,
      "ml": 741,
      "dex": 742,
      "html": 743,
      "yam": 744,
      "yaml": 745,
      "js": 746,
      "json": 747,
      "Commit": 748,
      "Check": 749,
      "Git": 750,
      "ahe": 751,
      "branch": 752,
      "commit": 753,
      "clean": 754,
      "message": 755,
      "rol": 756,
      "Ġversion": 757,
      "Ġlog": 758,
      "Ġdiff": 759,
      "enum": 760,
      "ree": 761,
      "Ġaction": 762,
      "Ġworking": 763,
      "Ġclean": 764,
      "ĠCheck": 765,
      "Ġmessage": 766,
      "Ġif": 767,
      ").\",": 768,
      "peration": 769,
      "Ġtrue": 770,
      "Ġtree": 771,
      "Ġbranch": 772,
      "Ġoperation": 773,
      "Ġcontrol": 774,
      "ahead": 775,
      "Ġoperations": 776,
      "142": 777,
      ";\"}.<|": 778,
      ";\"}}<|": 779,
      "Count": 780,
      "Path": 781,
      "Qu": 782,
      "]]": 783,
      "gain": 784,
      "her": 785,
      "ple": 786,
      "rr": 787,
      "urr": 788,
      "ws": 789,
      "Ġ.": 790,
      "only": 791,
      "ted": 792,
      "rows": 793,
      "Ġagain": 794,
      "omple": 795,
      "ently": 796,
      "Ġcurr": 797,
      "Ġcomple": 798,
      "Ġsqlite": 799,
      "ĠCount": 800,
      "Ġ[[": 801,
      "Ġ142": 802,
      "ĠTher": 803,
      "Query": 804,
      "]]}<|": 805,
      "Ġagainst": 806,
      "Ġcurrently": 807,
      "Ġcompleted": 808,
      "ĠThere": 809,
      ").<|": 810,
      "Content": 811,
      "De": 812,
      "Successfully": 813,
      "Write": 814,
      "bytes": 815,
      "success": 816,
      "update": 817,
      "written": 818,
      "Ġstring": 819,
      "Ġ54": 820,
      "ĠUpdate": 821,
      "Ġupdate": 822,
      "stin": 823,
      "Ġwrite": 824,
      "Ġwritten": 825,
      "verwrite": 826,
      "Ġoverwrite": 827,
      "Destin": 828,
      "Ġupdated": 829,
      "Destination": 830,
      "Command": 831,
      "Timeout": 832,
      "Working": 833,
      "code": 834,
      "ctory": 835,
      "cation": 836,
      "ds": 837,
      "is": 838,
      "ication": 839,
      "lication": 840,
      "ms": 841,
      "timeout": 842,
      "Ġdi": 843,
      "ĠRun": 844,
      "Ġla": 845,
      "Ġ\"\"}<|": 846,
      "onds": 847,
      "err": 848,
      "rectory": 849,
      "ecut": 850,
      "econds": 851,
      "Ġcode": 852,
      "Ġsuccessfully": 853,
      "Ġlocally": 854,
      "exit": 855,
      "Ġmill": 856,
      "ecution": 857,
      "Ġprocess": 858,
      "ecuted": 859,
      "unch": 860,
      "Ġexit": 861,
      "Ġexecution": 862,
      "Ġexecuted": 863,
      "Execut": 864,
      "stdout": 865,
      "stderr": 866,
      "```<|": 867,
      "Ġ\".\"}.<|": 868,
      "Ġ\".\"}}<|": 869,
      "Ġfor": 870,
      "Ġapplication": 871,
      "iseconds": 872,
      "Ġdirectory": 873,
      "Ġlaunch": 874,
      "Ġmilliseconds": 875,
      "Executable": 876,
      "'ve": 877,
      "?.": 878,
      "?<|": 879,
      "Ab": 880,
      "By": 881,
      "Can": 882,
      "Num": 883,
      "Re": 884,
      "`.": 885,
      "ber": 886,
      "gth": 887,
      "len": 888,
      "nversion": 889,
      "ok": 890,
      "ration": 891,
      "sol": 892,
      "ute": 893,
      "Ġand": 894,
      "Ġ\"#": 895,
      "rom": 896,
      "Ġsystem": 897,
      "Ġrela": 898,
      "ĠCan": 899,
      "ĠContent": 900,
      "guration": 901,
      "offset": 902,
      "ĠIt": 903,
      "ains": 904,
      "Ġoffset": 905,
      "Ġcontains": 906,
      "Ġcontents": 907,
      "Ġfrom": 908,
      "Ġconfiguration": 909,
      "Absol": 910,
      "Byte": 911,
      "Number": 912,
      "Read": 913,
      "length": 914,
      "Ġrelative": 915,
      "ĠContents": 916,
      "Absolute": 917,
      "server": 918,
      "car": 919,
      "go": 920,
      "Ġcheck": 921,
      "cargo": 922,
      "ct": 923,
      "gin": 924,
      "ngin": 925,
      "Ġngin": 926,
      "systemct": 927,
      "Ġnginx": 928,
      "systemctl": 929,
      "index": 930,
      "confi": 931,
      "config": 932,
      "ck": 933,
      "do": 934,
      "np": 935,
      "Ġbu": 936,
      "Ġps": 937,
      "cker": 938,
      "docker": 939,
      "npm": 940,
      "Ġbuild": 941,
      "Ġ-": 942,
      "test": 943,
      "pytest": 944,
      "settings": 945,
      "Ġmain": 946,
      "Ġserver": 947,
      "Ġindex": 948,
      "Ġconfig": 949
    },
    "merges": [
      [
        "Ġ",
        "Ġ"
      ],
      [
        "ĠĠ",
        "ĠĠ"
      ],
      [
        "Ġ",
        "\""
      ],
      [
        "\"",
        ":"
      ],
      [
        "s",
        "t"
      ],
      [
        "Ċ",
        "ĠĠĠĠ"
      ],
      [
        "<",
        "|"
      ],
      [
        "|",
        ">"
      ],
      [
        "o",
        "n"
      ],
      [
        "e",
        "n"
      ],
      [
        "a",
        "r"
      ],
      [
        "t",
        "o"
      ],
      [
        "e",
        "s"
      ],
      [
        "ĠĠ",
        "Ġ"
      ],
      [
        "e",
        "r"
      ],
      [
        "t",
        "h"
      ],
      [
        "i",
        "m"
      ],
      [
        "i",
        "n"
      ],
      [
        "\"",
        ","
      ],
      [
        "t",
        "i"
      ],
      [
        "o",
        "l"
      ],
      [
        "st",
        "ar"
      ],
      [
        "en",
        "d"
      ],
      [
        "star",
        "t"
      ],
      [
        "a",
        "l"
      ],
      [
        "Ġ",
        "{"
      ],
      [
        "a",
        "n"
      ],
      [
        "to",
        "ol"
      ],
      [
        "t",
        "e"
      ],
      [
        "u",
        "s"
      ],
      [
        "c",
        "al"
      ],
      [
        "ti",
        "on"
      ],
      [
        "ĊĠĠĠĠ",
        "ĠĠĠ"
      ],
      [
        "r",
        "e"
      ],
      [
        "i",
        "l"
      ],
      [
        "ĊĠĠĠĠ",
        "ĠĠĠĠ"
      ],
      [
        "Ġ",
        "}"
      ],
      [
        "o",
        "u"
      ],
      [
        "ĊĠĠĠĠ",
        "Ġ"
      ],
      [
        "ĊĠĠĠĠĠĠĠĠ",
        "Ġ"
      ],
      [
        "r",
        "o"
      ],
      [
        "d",
        "e"
      ],
      [
        "r",
        "i"
      ],
      [
        "s",
        "i"
      ],
      [
        "Ġ",
        "a"
      ],
      [
        "Ġ",
        "w"
      ],
      [
        "a",
        "t"
      ],
      [
        "l",
        "o"
      ],
      [
        "e",
        "c"
      ],
      [
        "f",
        "il"
      ],
      [
        "Ċ",
        "ĠĠĠ"
      ],
      [
        "Ġ",
        "M"
      ],
      [
        "q",
        "u"
      ],
      [
        "Ġ",
        "th"
      ],
      [
        "Ġth",
        "e"
      ],
      [
        "lo",
        "cal"
      ],
      [
        "e",
        "m"
      ],
      [
        "us",
        "er"
      ],
      [
        "o",
        "m"
      ],
      [
        "en",
        "t"
      ],
      [
        "p",
        "e"
      ],
      [
        "t",
        "y"
      ],
      [
        "ty",
        "pe"
      ],
      [
        "a",
        "s"
      ],
      [
        "in",
        "g"
      ],
      [
        "a",
        "m"
      ],
      [
        "p",
        "ro"
      ],
      [
        "c",
        "ri"
      ],
      [
        "d",
        "es"
      ],
      [
        "p",
        "tion"
      ],
      [
        "cri",
        "ption"
      ],
      [
        "des",
        "cription"
      ],
      [
        "r",
        "es"
      ],
      [
        "cal",
        "l"
      ],
      [
        "am",
        "e"
      ],
      [
        "o",
        "de"
      ],
      [
        "a",
        "th"
      ],
      [
        "fil",
        "e"
      ],
      [
        "Ġ",
        "c"
      ],
      [
        "i",
        "t"
      ],
      [
        "Ġ",
        "s"
      ],
      [
        "es",
        "s"
      ],
      [
        "p",
        "ath"
      ],
      [
        ".",
        "<|"
      ],
      [
        "c",
        "h"
      ],
      [
        "Ġ",
        "to"
      ],
      [
        ".",
        "\""
      ],
      [
        "y",
        "st"
      ],
      [
        "yst",
        "em"
      ],
      [
        "Ġ",
        "user"
      ],
      [
        "Ġ",
        "("
      ],
      [
        "v",
        "e"
      ],
      [
        "u",
        "l"
      ],
      [
        "Ġ}",
        ","
      ],
      [
        "Ġ",
        "="
      ],
      [
        "Ġ",
        "re"
      ],
      [
        "c",
        "ess"
      ],
      [
        "Ġ",
        "local"
      ],
      [
        "a",
        "b"
      ],
      [
        "h",
        "t"
      ],
      [
        "ar",
        "e"
      ],
      [
        "Ġ",
        "C"
      ],
      [
        "om",
        "m"
      ],
      [
        "u",
        "t"
      ],
      [
        "st",
        "at"
      ],
      [
        "stat",
        "us"
      ],
      [
        "g",
        "u"
      ],
      [
        "on",
        "t"
      ],
      [
        "Ġ",
        "in"
      ],
      [
        "er",
        "y"
      ],
      [
        "c",
        "tion"
      ],
      [
        "r",
        "ing"
      ],
      [
        "st",
        "ring"
      ],
      [
        "C",
        "P"
      ],
      [
        "Y",
        "ou"
      ],
      [
        "g",
        "ht"
      ],
      [
        "n",
        "ame"
      ],
      [
        "{",
        "\""
      ],
      [
        "}",
        "<|"
      ],
      [
        "Ċ",
        "Ġ"
      ],
      [
        "Ġ",
        "tool"
      ],
      [
        "st",
        "an"
      ],
      [
        "|>",
        "{\""
      ],
      [
        "th",
        "ou"
      ],
      [
        "Ġ{",
        "\""
      ],
      [
        "si",
        "stan"
      ],
      [
        "ĠM",
        "ode"
      ],
      [
        "qu",
        "i"
      ],
      [
        "as",
        "sistan"
      ],
      [
        "res",
        "ul"
      ],
      [
        "thou",
        "ght"
      ],
      [
        "ĠMode",
        "l"
      ],
      [
        "assistan",
        "t"
      ],
      [
        "resul",
        "t"
      ],
      [
        "i",
        "th"
      ],
      [
        "Ġw",
        "ith"
      ],
      [
        "o",
        "f"
      ],
      [
        "qu",
        "ery"
      ],
      [
        "ont",
        "ent"
      ],
      [
        "e",
        "x"
      ],
      [
        "ec",
        "t"
      ],
      [
        "d",
        "at"
      ],
      [
        "a",
        "d"
      ],
      [
        "l",
        "e"
      ],
      [
        "Ġ",
        "S"
      ],
      [
        "Ġa",
        "c"
      ],
      [
        "\"",
        "}"
      ],
      [
        "h",
        "e"
      ],
      [
        "Ġ",
        "m"
      ],
      [
        "Ġ",
        "`"
      ],
      [
        "an",
        "d"
      ],
      [
        "v",
        "er"
      ],
      [
        "d",
        "b"
      ],
      [
        "Ġuser",
        "s"
      ],
      [
        "g",
        "it"
      ],
      [
        "a",
        "g"
      ],
      [
        "ag",
        "e"
      ],
      [
        "Ġ",
        "i"
      ],
      [
        "Ġ",
        "["
      ],
      [
        "Ġ",
        "h"
      ],
      [
        "m",
        "ent"
      ],
      [
        "v",
        "i"
      ],
      [
        "Ġ",
        "1"
      ],
      [
        "j",
        "ect"
      ],
      [
        "Ġ",
        "file"
      ],
      [
        "ec",
        "u"
      ],
      [
        "omm",
        "and"
      ],
      [
        "i",
        "te"
      ],
      [
        "as",
        "e"
      ],
      [
        "ab",
        "ase"
      ],
      [
        "dat",
        "abase"
      ],
      [
        "r",
        "y"
      ],
      [
        "to",
        "ry"
      ],
      [
        "ti",
        "ve"
      ],
      [
        "ri",
        "te"
      ],
      [
        ")",
        "."
      ],
      [
        "p",
        "er"
      ],
      [
        "Ġ",
        "]"
      ],
      [
        "Ġi",
        "s"
      ],
      [
        "Ġ",
        "are"
      ],
      [
        "Ġ",
        "an"
      ],
      [
        "il",
        "l"
      ],
      [
        "Ġ",
        "pro"
      ],
      [
        "Ġ",
        "I"
      ],
      [
        "o",
        "r"
      ],
      [
        "ecu",
        "te"
      ],
      [
        "s",
        "ystem"
      ],
      [
        "es",
        "ystem"
      ],
      [
        "fil",
        "esystem"
      ],
      [
        "Ġ",
        "p"
      ],
      [
        "u",
        "n"
      ],
      [
        "a",
        "in"
      ],
      [
        "o",
        "si"
      ],
      [
        "p",
        "osi"
      ],
      [
        "posi",
        "tory"
      ],
      [
        "d",
        "u"
      ],
      [
        "du",
        "ction"
      ],
      [
        "ab",
        "le"
      ],
      [
        "l",
        "y"
      ],
      [
        ")",
        ":"
      ],
      [
        "L",
        "M"
      ],
      [
        "L",
        "an"
      ],
      [
        "M",
        "CP"
      ],
      [
        "P",
        "ro"
      ],
      [
        "S",
        "ch"
      ],
      [
        "S",
        "LM"
      ],
      [
        "T",
        "he"
      ],
      [
        "V",
        "a"
      ],
      [
        "]",
        "<|"
      ],
      [
        "a",
        "y"
      ],
      [
        "a",
        "ch"
      ],
      [
        "a",
        "ve"
      ],
      [
        "b",
        "ject"
      ],
      [
        "c",
        "ol"
      ],
      [
        "m",
        "al"
      ],
      [
        "o",
        "us"
      ],
      [
        "o",
        "bject"
      ],
      [
        "p",
        "ut"
      ],
      [
        "t",
        "w"
      ],
      [
        "t",
        "er"
      ],
      [
        "x",
        "t"
      ],
      [
        "Ġ",
        "call"
      ],
      [
        "Ġ",
        "You"
      ],
      [
        "Ġ",
        "vi"
      ],
      [
        "Ġ",
        "Lan"
      ],
      [
        "Ġ",
        "Pro"
      ],
      [
        "Ġ",
        "Va"
      ],
      [
        "on",
        "te"
      ],
      [
        "on",
        "om"
      ],
      [
        "ar",
        "ame"
      ],
      [
        "ar",
        "gu"
      ],
      [
        "to",
        "col"
      ],
      [
        "in",
        "e"
      ],
      [
        "in",
        "put"
      ],
      [
        "ti",
        "es"
      ],
      [
        "re",
        "d"
      ],
      [
        "re",
        "qui"
      ],
      [
        "Ġa",
        "ut"
      ],
      [
        "Ġw",
        "ill"
      ],
      [
        "ĠM",
        "CP"
      ],
      [
        "ĠM",
        "ach"
      ],
      [
        "em",
        "a"
      ],
      [
        "pro",
        "per"
      ],
      [
        "Ġs",
        "of"
      ],
      [
        "Ġre",
        "qui"
      ],
      [
        "ĠC",
        "onte"
      ],
      [
        "gu",
        "age"
      ],
      [
        "Ġtool",
        "s"
      ],
      [
        "ĠS",
        "mal"
      ],
      [
        "Ġac",
        "cess"
      ],
      [
        "Ġh",
        "ave"
      ],
      [
        "ment",
        "s"
      ],
      [
        "Ġp",
        "arame"
      ],
      [
        "Sch",
        "ema"
      ],
      [
        "SLM",
        "M"
      ],
      [
        "ay",
        "u"
      ],
      [
        "tw",
        "are"
      ],
      [
        "ter",
        "s"
      ],
      [
        "Ġvi",
        "a"
      ],
      [
        "ĠLan",
        "guage"
      ],
      [
        "ĠPro",
        "tocol"
      ],
      [
        "ĠVa",
        "ayu"
      ],
      [
        "onom",
        "ous"
      ],
      [
        "argu",
        "ments"
      ],
      [
        "input",
        "Schema"
      ],
      [
        "requi",
        "red"
      ],
      [
        "Ġaut",
        "onomous"
      ],
      [
        "ĠMach",
        "ine"
      ],
      [
        "proper",
        "ties"
      ],
      [
        "Ġsof",
        "tware"
      ],
      [
        "Ġrequi",
        "res"
      ],
      [
        "ĠConte",
        "xt"
      ],
      [
        "ĠSmal",
        "l"
      ],
      [
        "Ġparame",
        "ters"
      ],
      [
        "c",
        "ontent"
      ],
      [
        "Ġ",
        "ex"
      ],
      [
        "si",
        "on"
      ],
      [
        "ver",
        "sion"
      ],
      [
        "u",
        "c"
      ],
      [
        "Ġ",
        "0"
      ],
      [
        ".",
        "\","
      ],
      [
        "Ġ",
        "status"
      ],
      [
        "b",
        "u"
      ],
      [
        "s",
        "e"
      ],
      [
        "l",
        "ite"
      ],
      [
        "q",
        "lite"
      ],
      [
        "p",
        "p"
      ],
      [
        "t",
        "t"
      ],
      [
        "ing",
        "s"
      ],
      [
        "a",
        "ction"
      ],
      [
        "Ġ",
        "git"
      ],
      [
        "ĊĠĠĠĠĠĠĠĠ",
        "ĠĠĠ"
      ],
      [
        "omm",
        "it"
      ],
      [
        "Ġ",
        "t"
      ],
      [
        "Ġ",
        "F"
      ],
      [
        ".",
        "."
      ],
      [
        "w",
        "rite"
      ],
      [
        "\"}",
        ".<|"
      ],
      [
        "\"}",
        "}<|"
      ],
      [
        "a",
        "tion"
      ],
      [
        ".",
        "/"
      ],
      [
        "Ġ\"",
        "./"
      ],
      [
        "de",
        "bu"
      ],
      [
        "debu",
        "g"
      ],
      [
        "`",
        "`"
      ],
      [
        "c",
        "ommand"
      ],
      [
        "Ġre",
        "ad"
      ],
      [
        "Ġ",
        "of"
      ],
      [
        "lo",
        "g"
      ],
      [
        "s",
        "qlite"
      ],
      [
        "o",
        "p"
      ],
      [
        "re",
        "pository"
      ],
      [
        "C",
        "T"
      ],
      [
        "E",
        "L"
      ],
      [
        "E",
        "CT"
      ],
      [
        "Q",
        "L"
      ],
      [
        "S",
        "EL"
      ],
      [
        "ĠS",
        "QL"
      ],
      [
        "Ġac",
        "tive"
      ],
      [
        "SEL",
        "ECT"
      ],
      [
        "d",
        "i"
      ],
      [
        "a",
        "te"
      ],
      [
        "d",
        "ate"
      ],
      [
        "p",
        "date"
      ],
      [
        "Ġm",
        "ode"
      ],
      [
        "Ġpro",
        "duction"
      ],
      [
        "m",
        "ain"
      ],
      [
        "Ġ",
        "b"
      ],
      [
        "uc",
        "cess"
      ],
      [
        "E",
        "x"
      ],
      [
        "R",
        "un"
      ],
      [
        "h",
        "ec"
      ],
      [
        "hec",
        "k"
      ],
      [
        "n",
        "debug"
      ],
      [
        "t",
        "es"
      ],
      [
        "y",
        "tes"
      ],
      [
        "r",
        "u"
      ],
      [
        "ru",
        "e"
      ],
      [
        "Ġ",
        "or"
      ],
      [
        "a",
        "pp"
      ],
      [
        "c",
        "w"
      ],
      [
        "ou",
        "t"
      ],
      [
        "pro",
        "cess"
      ],
      [
        "ex",
        "ecute"
      ],
      [
        "cw",
        "d"
      ],
      [
        "Ġ",
        "T"
      ],
      [
        "g",
        "er"
      ],
      [
        "in",
        "te"
      ],
      [
        "inte",
        "ger"
      ],
      [
        "re",
        "ad"
      ],
      [
        "Ġ",
        "database"
      ],
      [
        "il",
        "d"
      ],
      [
        "tt",
        "ings"
      ],
      [
        "f",
        "i"
      ],
      [
        "on",
        "fi"
      ],
      [
        "p",
        "y"
      ],
      [
        "f",
        "f"
      ],
      [
        "r",
        "an"
      ],
      [
        "Ġc",
        "ommit"
      ],
      [
        "ess",
        "age"
      ],
      [
        "Ġre",
        "pository"
      ],
      [
        "le",
        "an"
      ],
      [
        "di",
        "ff"
      ],
      [
        "ran",
        "ch"
      ],
      [
        "(",
        "*"
      ],
      [
        "4",
        "2"
      ],
      [
        "E",
        "R"
      ],
      [
        "H",
        "ER"
      ],
      [
        "N",
        "T"
      ],
      [
        "O",
        "M"
      ],
      [
        "O",
        "U"
      ],
      [
        "R",
        "OM"
      ],
      [
        "W",
        "HER"
      ],
      [
        "a",
        "c"
      ],
      [
        "i",
        "st"
      ],
      [
        "n",
        "t"
      ],
      [
        "o",
        "w"
      ],
      [
        "Ġ",
        "query"
      ],
      [
        "Ġ",
        "WHER"
      ],
      [
        "an",
        "y"
      ],
      [
        "ou",
        "nt"
      ],
      [
        "ĠC",
        "OU"
      ],
      [
        "dat",
        "a"
      ],
      [
        "Ġm",
        "any"
      ],
      [
        "Ġh",
        "ow"
      ],
      [
        "Ġex",
        "ist"
      ],
      [
        "Ġt",
        "able"
      ],
      [
        "ĠF",
        "ROM"
      ],
      [
        "ĠSQL",
        "ite"
      ],
      [
        "(*",
        ")"
      ],
      [
        "ac",
        "tive"
      ],
      [
        "ĠWHER",
        "E"
      ],
      [
        "ĠCOU",
        "NT"
      ],
      [
        "Ġ",
        "o"
      ],
      [
        "'",
        "\\"
      ],
      [
        "5",
        "4"
      ],
      [
        "U",
        "pdate"
      ],
      [
        "n",
        "en"
      ],
      [
        "r",
        "on"
      ],
      [
        "Ġ",
        "'"
      ],
      [
        "Ġ",
        "en"
      ],
      [
        "al",
        "se"
      ],
      [
        "ri",
        "tt"
      ],
      [
        "pro",
        "duction"
      ],
      [
        "vi",
        "ron"
      ],
      [
        "ĠF",
        "alse"
      ],
      [
        "nen",
        "viron"
      ],
      [
        "Ġen",
        "able"
      ],
      [
        "ritt",
        "en"
      ],
      [
        "nenviron",
        "ment"
      ],
      [
        "k",
        "ing"
      ],
      [
        "or",
        "king"
      ],
      [
        "Ex",
        "ecute"
      ],
      [
        "`",
        ".<|"
      ],
      [
        "u",
        "m"
      ],
      [
        "Ġ",
        "on"
      ],
      [
        "Ġc",
        "ont"
      ],
      [
        "f",
        "ul"
      ],
      [
        "uccess",
        "ful"
      ],
      [
        "uccessful",
        "ly"
      ],
      [
        "Ġ",
        "path"
      ],
      [
        "Ġc",
        "ontent"
      ],
      [
        "Ġb",
        "ytes"
      ],
      [
        "B",
        "u"
      ],
      [
        "c",
        "e"
      ],
      [
        "e",
        "de"
      ],
      [
        "e",
        "out"
      ],
      [
        "l",
        "l"
      ],
      [
        "n",
        "ings"
      ],
      [
        "o",
        "t"
      ],
      [
        "Ġ",
        "ro"
      ],
      [
        "Ġ\"",
        ".\""
      ],
      [
        "st",
        "d"
      ],
      [
        "ar",
        "nings"
      ],
      [
        "im",
        "eout"
      ],
      [
        "Ġw",
        "arnings"
      ],
      [
        "Ġc",
        "ommand"
      ],
      [
        "Ġs",
        "he"
      ],
      [
        "Ġs",
        "uc"
      ],
      [
        "Ġpro",
        "ject"
      ],
      [
        "``",
        "`"
      ],
      [
        "Bu",
        "ild"
      ],
      [
        "ce",
        "ede"
      ],
      [
        "Ġro",
        "ot"
      ],
      [
        "Ġ\".\"",
        "}"
      ],
      [
        "Ġshe",
        "ll"
      ],
      [
        "Ġsuc",
        "ceede"
      ],
      [
        "Ġsucceede",
        "d"
      ],
      [
        "\"",
        "}<|"
      ],
      [
        "l",
        "a"
      ],
      [
        "Ġ",
        "f"
      ],
      [
        "f",
        "se"
      ],
      [
        "h",
        "at"
      ],
      [
        "p",
        "ect"
      ],
      [
        "s",
        "pect"
      ],
      [
        "y",
        "ou"
      ],
      [
        "Ġ",
        "you"
      ],
      [
        "si",
        "de"
      ],
      [
        "Ġw",
        "hat"
      ],
      [
        "Ġin",
        "spect"
      ],
      [
        "Ġin",
        "side"
      ],
      [
        "ĠT",
        "rue"
      ],
      [
        "fse",
        "t"
      ],
      [
        "r",
        "un"
      ],
      [
        "Ġ",
        "run"
      ],
      [
        "Ġa",
        "pp"
      ],
      [
        "e",
        "ttings"
      ],
      [
        "Ġs",
        "ettings"
      ],
      [
        "r",
        "s"
      ],
      [
        "Ġc",
        "onfi"
      ],
      [
        "er",
        "ver"
      ],
      [
        "m",
        "l"
      ],
      [
        "de",
        "x"
      ],
      [
        "ht",
        "ml"
      ],
      [
        "y",
        "am"
      ],
      [
        "yam",
        "l"
      ],
      [
        "j",
        "s"
      ],
      [
        "js",
        "on"
      ],
      [
        "C",
        "ommit"
      ],
      [
        "C",
        "heck"
      ],
      [
        "G",
        "it"
      ],
      [
        "a",
        "he"
      ],
      [
        "b",
        "ranch"
      ],
      [
        "c",
        "ommit"
      ],
      [
        "c",
        "lean"
      ],
      [
        "m",
        "essage"
      ],
      [
        "r",
        "ol"
      ],
      [
        "Ġ",
        "version"
      ],
      [
        "Ġ",
        "log"
      ],
      [
        "Ġ",
        "diff"
      ],
      [
        "en",
        "um"
      ],
      [
        "re",
        "e"
      ],
      [
        "Ġa",
        "ction"
      ],
      [
        "Ġw",
        "orking"
      ],
      [
        "Ġc",
        "lean"
      ],
      [
        "ĠC",
        "heck"
      ],
      [
        "Ġm",
        "essage"
      ],
      [
        "Ġi",
        "f"
      ],
      [
        ").",
        "\","
      ],
      [
        "per",
        "ation"
      ],
      [
        "Ġt",
        "rue"
      ],
      [
        "Ġt",
        "ree"
      ],
      [
        "Ġb",
        "ranch"
      ],
      [
        "Ġo",
        "peration"
      ],
      [
        "Ġcont",
        "rol"
      ],
      [
        "ahe",
        "ad"
      ],
      [
        "Ġoperation",
        "s"
      ],
      [
        "1",
        "42"
      ],
      [
        ";",
        "\"}.<|"
      ],
      [
        ";",
        "\"}}<|"
      ],
      [
        "C",
        "ount"
      ],
      [
        "P",
        "ath"
      ],
      [
        "Q",
        "u"
      ],
      [
        "]",
        "]"
      ],
      [
        "g",
        "ain"
      ],
      [
        "h",
        "er"
      ],
      [
        "p",
        "le"
      ],
      [
        "r",
        "r"
      ],
      [
        "u",
        "rr"
      ],
      [
        "w",
        "s"
      ],
      [
        "Ġ",
        "."
      ],
      [
        "on",
        "ly"
      ],
      [
        "te",
        "d"
      ],
      [
        "ro",
        "ws"
      ],
      [
        "Ġa",
        "gain"
      ],
      [
        "om",
        "ple"
      ],
      [
        "ent",
        "ly"
      ],
      [
        "Ġc",
        "urr"
      ],
      [
        "Ġc",
        "omple"
      ],
      [
        "Ġs",
        "qlite"
      ],
      [
        "ĠC",
        "ount"
      ],
      [
        "Ġ[",
        "["
      ],
      [
        "Ġ1",
        "42"
      ],
      [
        "ĠT",
        "her"
      ],
      [
        "Qu",
        "ery"
      ],
      [
        "]]",
        "}<|"
      ],
      [
        "Ġagain",
        "st"
      ],
      [
        "Ġcurr",
        "ently"
      ],
      [
        "Ġcomple",
        "ted"
      ],
      [
        "ĠTher",
        "e"
      ],
      [
        ")",
        ".<|"
      ],
      [
        "C",
        "ontent"
      ],
      [
        "D",
        "e"
      ],
      [
        "S",
        "uccessfully"
      ],
      [
        "W",
        "rite"
      ],
      [
        "b",
        "ytes"
      ],
      [
        "s",
        "uccess"
      ],
      [
        "u",
        "pdate"
      ],
      [
        "w",
        "ritten"
      ],
      [
        "Ġ",
        "string"
      ],
      [
        "Ġ",
        "54"
      ],
      [
        "Ġ",
        "Update"
      ],
      [
        "Ġ",
        "update"
      ],
      [
        "st",
        "in"
      ],
      [
        "Ġw",
        "rite"
      ],
      [
        "Ġw",
        "ritten"
      ],
      [
        "ver",
        "write"
      ],
      [
        "Ġo",
        "verwrite"
      ],
      [
        "De",
        "stin"
      ],
      [
        "Ġupdate",
        "d"
      ],
      [
        "Destin",
        "ation"
      ],
      [
        "C",
        "ommand"
      ],
      [
        "T",
        "imeout"
      ],
      [
        "W",
        "orking"
      ],
      [
        "c",
        "ode"
      ],
      [
        "c",
        "tory"
      ],
      [
        "c",
        "ation"
      ],
      [
        "d",
        "s"
      ],
      [
        "i",
        "s"
      ],
      [
        "i",
        "cation"
      ],
      [
        "l",
        "ication"
      ],
      [
        "m",
        "s"
      ],
      [
        "t",
        "imeout"
      ],
      [
        "Ġ",
        "di"
      ],
      [
        "Ġ",
        "Run"
      ],
      [
        "Ġ",
        "la"
      ],
      [
        "Ġ\"",
        "\"}<|"
      ],
      [
        "on",
        "ds"
      ],
      [
        "er",
        "r"
      ],
      [
        "re",
        "ctory"
      ],
      [
        "ec",
        "ut"
      ],
      [
        "ec",
        "onds"
      ],
      [
        "Ġc",
        "ode"
      ],
      [
        "Ġs",
        "uccessfully"
      ],
      [
        "Ġlocal",
        "ly"
      ],
      [
        "ex",
        "it"
      ],
      [
        "Ġm",
        "ill"
      ],
      [
        "ecu",
        "tion"
      ],
      [
        "Ġpro",
        "cess"
      ],
      [
        "ecute",
        "d"
      ],
      [
        "un",
        "ch"
      ],
      [
        "Ġex",
        "it"
      ],
      [
        "Ġex",
        "ecution"
      ],
      [
        "Ġex",
        "ecuted"
      ],
      [
        "Ex",
        "ecut"
      ],
      [
        "std",
        "out"
      ],
      [
        "std",
        "err"
      ],
      [
        "```",
        "<|"
      ],
      [
        "Ġ\".\"}",
        ".<|"
      ],
      [
        "Ġ\".\"}",
        "}<|"
      ],
      [
        "Ġf",
        "or"
      ],
      [
        "Ġapp",
        "lication"
      ],
      [
        "is",
        "econds"
      ],
      [
        "Ġdi",
        "rectory"
      ],
      [
        "Ġla",
        "unch"
      ],
      [
        "Ġmill",
        "iseconds"
      ],
      [
        "Execut",
        "able"
      ],
      [
        "'",
        "ve"
      ],
      [
        "?",
        "."
      ],
      [
        "?",
        "<|"
      ],
      [
        "A",
        "b"
      ],
      [
        "B",
        "y"
      ],
      [
        "C",
        "an"
      ],
      [
        "N",
        "um"
      ],
      [
        "R",
        "e"
      ],
      [
        "`",
        "."
      ],
      [
        "b",
        "er"
      ],
      [
        "g",
        "th"
      ],
      [
        "l",
        "en"
      ],
      [
        "n",
        "version"
      ],
      [
        "o",
        "k"
      ],
      [
        "r",
        "ation"
      ],
      [
        "s",
        "ol"
      ],
      [
        "u",
        "te"
      ],
      [
        "Ġ",
        "and"
      ],
      [
        "Ġ\"",
        "#"
      ],
      [
        "ro",
        "m"
      ],
      [
        "Ġs",
        "ystem"
      ],
      [
        "Ġre",
        "la"
      ],
      [
        "ĠC",
        "an"
      ],
      [
        "ĠC",
        "ontent"
      ],
      [
        "gu",
        "ration"
      ],
      [
        "of",
        "fset"
      ],
      [
        "ĠI",
        "t"
      ],
      [
        "ain",
        "s"
      ],
      [
        "Ġof",
        "fset"
      ],
      [
        "Ġcont",
        "ains"
      ],
      [
        "Ġcontent",
        "s"
      ],
      [
        "Ġf",
        "rom"
      ],
      [
        "Ġconfi",
        "guration"
      ],
      [
        "Ab",
        "sol"
      ],
      [
        "By",
        "te"
      ],
      [
        "Num",
        "ber"
      ],
      [
        "Re",
        "ad"
      ],
      [
        "len",
        "gth"
      ],
      [
        "Ġrela",
        "tive"
      ],
      [
        "ĠContent",
        "s"
      ],
      [
        "Absol",
        "ute"
      ],
      [
        "s",
        "erver"
      ],
      [
        "c",
        "ar"
      ],
      [
        "g",
        "o"
      ],
      [
        "Ġc",
        "heck"
      ],
      [
        "car",
        "go"
      ],
      [
        "c",
        "t"
      ],
      [
        "g",
        "in"
      ],
      [
        "n",
        "gin"
      ],
      [
        "Ġ",
        "ngin"
      ],
      [
        "system",
        "ct"
      ],
      [
        "Ġngin",
        "x"
      ],
      [
        "systemct",
        "l"
      ],
      [
        "in",
        "dex"
      ],
      [
        "c",
        "onfi"
      ],
      [
        "confi",
        "g"
      ],
      [
        "c",
        "k"
      ],
      [
        "d",
        "o"
      ],
      [
        "n",
        "p"
      ],
      [
        "Ġ",
        "bu"
      ],
      [
        "Ġp",
        "s"
      ],
      [
        "ck",
        "er"
      ],
      [
        "do",
        "cker"
      ],
      [
        "np",
        "m"
      ],
      [
        "Ġbu",
        "ild"
      ],
      [
        "Ġ",
        "-"
      ],
      [
        "te",
        "st"
      ],
      [
        "py",
        "test"
      ],
      [
        "se",
        "ttings"
      ],
      [
        "Ġm",
        "ain"
      ],
      [
        "Ġs",
        "erver"
      ],
      [
        "Ġin",
        "dex"
      ],
      [
        "Ġconfi",
        "g"
      ]
    ]
  }
}